

// Automatically created from a TensorFlow Lite flatbuffer using the command:
// xxd -i sine_model.tflite > sine_model_data.cc
// See the README for a full description of the creation process.

#include "data.h"

// We need to keep the data array aligned on some architectures.
const float test[5][5] = {
  {0.68235296, 0.42352942, 0.36078432, 0.61960787, 0.4509804},
  {0.5764706 , 0.49019608, 0.45882353, 0.627451  , 0.47843137},
  {0.5137255 , 0.4862745 , 0.46666667, 0.6039216 , 0.45490196},
  {0.59607846, 0.47843137, 0.45882353, 0.54901963, 0.48235294},
  {0.54509807, 0.4862745 , 0.5019608 , 0.61960787, 0.4627451}
};

const float labels[10][3] = {
  {0., 0., 1.},
  {0., 1., 0.},
  {0., 0., 1.},
  {0., 1., 0.},
  {1., 0., 0.},
  {1., 0., 0.},
  {0., 1., 0.},
  {1., 0., 0.},
  {0., 0., 1.},
  {1., 0., 0.}
};
const unsigned char mi_data[] =  {
  0x1c, 0x00, 0x00, 0x00, 0x54, 0x46, 0x4c, 0x33, 0x00, 0x00, 0x12, 0x00,
  0x1c, 0x00, 0x04, 0x00, 0x08, 0x00, 0x0c, 0x00, 0x10, 0x00, 0x14, 0x00,
  0x00, 0x00, 0x18, 0x00, 0x12, 0x00, 0x00, 0x00, 0x03, 0x00, 0x00, 0x00,
  0x44, 0x12, 0x00, 0x00, 0xbc, 0x0c, 0x00, 0x00, 0xa4, 0x0c, 0x00, 0x00,
  0x34, 0x00, 0x00, 0x00, 0x04, 0x00, 0x00, 0x00, 0x01, 0x00, 0x00, 0x00,
  0x04, 0x00, 0x00, 0x00, 0x64, 0xee, 0xff, 0xff, 0x08, 0x00, 0x00, 0x00,
  0x0e, 0x00, 0x00, 0x00, 0x13, 0x00, 0x00, 0x00, 0x6d, 0x69, 0x6e, 0x5f,
  0x72, 0x75, 0x6e, 0x74, 0x69, 0x6d, 0x65, 0x5f, 0x76, 0x65, 0x72, 0x73,
  0x69, 0x6f, 0x6e, 0x00, 0x0f, 0x00, 0x00, 0x00, 0x64, 0x0c, 0x00, 0x00,
  0x3c, 0x0c, 0x00, 0x00, 0xe4, 0x0b, 0x00, 0x00, 0xd4, 0x07, 0x00, 0x00,
  0xcc, 0x07, 0x00, 0x00, 0x7c, 0x07, 0x00, 0x00, 0x6c, 0x03, 0x00, 0x00,
  0x64, 0x03, 0x00, 0x00, 0x14, 0x02, 0x00, 0x00, 0x0c, 0x02, 0x00, 0x00,
  0xbc, 0x01, 0x00, 0x00, 0xb4, 0x01, 0x00, 0x00, 0x24, 0x00, 0x00, 0x00,
  0x1c, 0x00, 0x00, 0x00, 0x04, 0x00, 0x00, 0x00, 0x02, 0xf4, 0xff, 0xff,
  0x04, 0x00, 0x00, 0x00, 0x05, 0x00, 0x00, 0x00, 0x31, 0x2e, 0x35, 0x2e,
  0x30, 0x00, 0x00, 0x00, 0x74, 0xee, 0xff, 0xff, 0x1a, 0xf4, 0xff, 0xff,
  0x04, 0x00, 0x00, 0x00, 0x80, 0x01, 0x00, 0x00, 0x0c, 0x2f, 0x4a, 0xbc,
  0xc0, 0x59, 0x4b, 0xbf, 0x96, 0x04, 0xd6, 0xbc, 0x2c, 0xc4, 0xd9, 0x3e,
  0x3c, 0xd4, 0x4a, 0xbe, 0x8a, 0x87, 0x99, 0x3e, 0xe0, 0x3e, 0xf0, 0x3f,
  0x61, 0x73, 0x60, 0xbd, 0x6a, 0x2a, 0x52, 0xbe, 0xe9, 0x27, 0xa9, 0x3f,
  0xc1, 0x58, 0xc2, 0xbe, 0xfa, 0xfc, 0xd1, 0xbd, 0x95, 0xc1, 0x52, 0x3e,
  0xe2, 0x7e, 0xf0, 0x3f, 0xe8, 0x48, 0xf1, 0xbe, 0xa1, 0x20, 0x49, 0xbf,
  0x9b, 0x1c, 0xd1, 0xbf, 0xfc, 0x49, 0x9e, 0x3f, 0x8d, 0x76, 0x8f, 0x3f,
  0xba, 0x4f, 0x83, 0x3f, 0x18, 0x07, 0x6c, 0xbe, 0xbf, 0x83, 0x9d, 0xbf,
  0x9b, 0x6d, 0x1a, 0x3f, 0x6e, 0xcd, 0x28, 0x3e, 0x2f, 0x9e, 0x9a, 0xbe,
  0xb4, 0xd7, 0x1e, 0x3f, 0x3e, 0xe0, 0xc1, 0x3d, 0x3a, 0xdc, 0xa9, 0xbe,
  0xb8, 0x71, 0xc7, 0x3f, 0xf5, 0xe0, 0xbd, 0xbd, 0x63, 0x96, 0x57, 0x3f,
  0x18, 0x1a, 0x0e, 0xbf, 0xb2, 0x7a, 0x38, 0xbf, 0xb8, 0xdd, 0x35, 0x3f,
  0x0d, 0x46, 0x21, 0xc0, 0x43, 0x64, 0xc3, 0x3f, 0x75, 0xda, 0xab, 0xbe,
  0xb7, 0xa1, 0x9c, 0x3f, 0xd6, 0x3b, 0x49, 0x3e, 0x10, 0x2a, 0x7d, 0xbc,
  0x77, 0xa0, 0x8f, 0xbf, 0x61, 0x13, 0x9a, 0x3f, 0x70, 0x1a, 0xbd, 0x3b,
  0x64, 0x8e, 0xc7, 0x3e, 0xaa, 0xfc, 0xd8, 0xbe, 0x23, 0x41, 0x13, 0x3f,
  0xdc, 0xc5, 0x8d, 0x3e, 0x9b, 0x03, 0x08, 0x40, 0x02, 0x42, 0x0b, 0x40,
  0xc2, 0xba, 0x52, 0x3f, 0x78, 0x07, 0x97, 0xbf, 0xe4, 0xec, 0x2a, 0xbf,
  0xc8, 0x1c, 0x7f, 0x3e, 0xd3, 0x6a, 0x16, 0xbf, 0x33, 0x25, 0x16, 0x3e,
  0x5e, 0x4a, 0x00, 0xbf, 0x49, 0xa9, 0xae, 0xbf, 0x69, 0xca, 0x25, 0x3f,
  0xef, 0x9c, 0x66, 0xbe, 0x8d, 0xc2, 0x50, 0x3e, 0xf8, 0xd0, 0x8d, 0x3f,
  0xae, 0xfe, 0x28, 0x3f, 0xe4, 0xdb, 0x58, 0x3e, 0x84, 0x0a, 0x76, 0xbe,
  0x2d, 0x9b, 0xfb, 0xbe, 0x22, 0x5e, 0xd3, 0x3e, 0x33, 0x1a, 0x4e, 0xbf,
  0x56, 0xbc, 0x65, 0xbf, 0xdc, 0xa3, 0x17, 0xbd, 0xcf, 0x98, 0x5e, 0x3f,
  0x30, 0xda, 0x8c, 0x3f, 0x71, 0x6f, 0x5d, 0x3d, 0x77, 0xe5, 0xa2, 0xbf,
  0x88, 0x03, 0x0a, 0x3f, 0xcd, 0xaf, 0xdb, 0xbe, 0xdd, 0xaa, 0x1e, 0x40,
  0x28, 0xd2, 0x1a, 0xbe, 0xcd, 0x19, 0xa0, 0x3e, 0xb2, 0x4a, 0xb0, 0x3f,
  0x9a, 0x02, 0x1c, 0xbf, 0x81, 0x95, 0xff, 0xbc, 0x16, 0x0f, 0x8d, 0xbc,
  0xd0, 0xc7, 0x49, 0xbd, 0x69, 0x74, 0x8f, 0xbe, 0x2f, 0x1a, 0x06, 0x3e,
  0x68, 0x6a, 0xec, 0x3d, 0xae, 0xd0, 0xbb, 0xbd, 0xdd, 0x09, 0x9f, 0xbe,
  0x0f, 0x3d, 0xc7, 0x3d, 0x78, 0x36, 0x6a, 0xbe, 0xfe, 0x0b, 0x21, 0xbd,
  0x71, 0x1d, 0x97, 0x3e, 0x7f, 0x1f, 0x1c, 0x3f, 0x93, 0x91, 0x6b, 0x3f,
  0x0a, 0x7a, 0x68, 0x3d, 0x3e, 0x5a, 0x1b, 0x3f, 0x04, 0xf0, 0xff, 0xff,
  0xaa, 0xf5, 0xff, 0xff, 0x04, 0x00, 0x00, 0x00, 0x40, 0x00, 0x00, 0x00,
  0x00, 0x00, 0x00, 0x00, 0x58, 0x5d, 0xcd, 0xbc, 0x46, 0x3b, 0x00, 0xbd,
  0x4e, 0xe3, 0x04, 0xbd, 0x6e, 0xb5, 0x72, 0xbd, 0x27, 0x3b, 0x00, 0xbd,
  0x47, 0x3b, 0x00, 0xbd, 0x39, 0x3b, 0x00, 0xbd, 0xb8, 0xc6, 0x91, 0x3c,
  0xa0, 0x05, 0x9f, 0x3c, 0x88, 0x33, 0x1d, 0xbc, 0xfa, 0xd2, 0x5e, 0xbb,
  0xdf, 0x50, 0x50, 0xbd, 0x40, 0x3b, 0x00, 0xbd, 0x00, 0x00, 0x00, 0x00,
  0x3c, 0xf6, 0x83, 0xbd, 0x54, 0xf0, 0xff, 0xff, 0xfa, 0xf5, 0xff, 0xff,
  0x04, 0x00, 0x00, 0x00, 0x40, 0x01, 0x00, 0x00, 0xd4, 0x71, 0xd5, 0xbd,
  0x80, 0x25, 0x98, 0x3b, 0x4e, 0x21, 0xd7, 0xbe, 0xfe, 0x28, 0x0e, 0xbe,
  0x2a, 0xa7, 0x2e, 0xbe, 0xc6, 0x39, 0xad, 0xbe, 0x30, 0x78, 0xcd, 0xbe,
  0xa4, 0x0c, 0x5f, 0xbe, 0xb3, 0x9a, 0xab, 0x3d, 0xe6, 0x22, 0xc4, 0x3e,
  0x33, 0x7e, 0x62, 0xbe, 0x71, 0x9c, 0x09, 0xbf, 0x1a, 0x75, 0xeb, 0x3e,
  0xf9, 0xd4, 0x8d, 0x3e, 0x63, 0x90, 0x21, 0x3e, 0x10, 0x65, 0xd1, 0xbd,
  0x59, 0xc0, 0x5d, 0x40, 0x91, 0x50, 0xfe, 0xbf, 0xf6, 0x8d, 0xb0, 0xbd,
  0x44, 0x4c, 0xaf, 0x40, 0x71, 0x77, 0xa2, 0x40, 0xc0, 0x4d, 0xde, 0xbf,
  0x80, 0x05, 0xc1, 0x40, 0xb5, 0x3b, 0x50, 0x3f, 0xe4, 0x59, 0x21, 0x3f,
  0x0f, 0x43, 0xfa, 0xbe, 0xaf, 0x8e, 0x9c, 0x3e, 0x67, 0xe8, 0x0e, 0xbf,
  0x46, 0x78, 0xd8, 0xbe, 0x0b, 0x41, 0xd1, 0x3e, 0xce, 0x71, 0x7f, 0xbe,
  0x31, 0xf5, 0x0d, 0xbe, 0xa1, 0x86, 0x49, 0x3e, 0x0e, 0x3c, 0xd7, 0x3d,
  0xf4, 0x53, 0xff, 0x3e, 0x20, 0xca, 0x9e, 0xba, 0x5f, 0x4f, 0xa8, 0x3e,
  0x66, 0x5c, 0xd6, 0x3e, 0x4c, 0x3e, 0x90, 0xbe, 0x84, 0x88, 0xd3, 0xbe,
  0xf0, 0x5f, 0x7b, 0x40, 0x48, 0x52, 0xbd, 0x40, 0xc4, 0xfe, 0xe3, 0xbd,
  0x37, 0x3b, 0xef, 0x3e, 0x9d, 0x94, 0x32, 0xc0, 0x09, 0x9e, 0x61, 0xc0,
  0xfd, 0x28, 0xe4, 0x3f, 0x09, 0x3c, 0x1f, 0x40, 0xeb, 0xf5, 0xd8, 0x40,
  0x25, 0x24, 0xb7, 0xbe, 0x1d, 0xad, 0xe7, 0xbf, 0x8b, 0x5a, 0x82, 0x40,
  0xa3, 0xa0, 0xa1, 0x40, 0x07, 0x70, 0x1e, 0xc0, 0xea, 0xe5, 0x77, 0x40,
  0x52, 0xbc, 0x06, 0x3e, 0x8c, 0xd2, 0xbf, 0xbd, 0x2b, 0x60, 0xeb, 0xbc,
  0x52, 0xb2, 0x16, 0xbe, 0x83, 0x6c, 0x0b, 0xbe, 0x5c, 0x4a, 0xe0, 0xbe,
  0xd3, 0x6d, 0xf7, 0x3e, 0x84, 0xc5, 0x1e, 0xbe, 0xda, 0xef, 0xb8, 0x3e,
  0xdc, 0x8d, 0xe9, 0x3d, 0xdb, 0x93, 0x08, 0xbf, 0x90, 0xf6, 0x90, 0xbb,
  0x7e, 0x01, 0xd2, 0x3d, 0x30, 0x3b, 0x40, 0x3b, 0x9a, 0x10, 0x65, 0x3e,
  0xd8, 0xdd, 0x87, 0xbd, 0x66, 0x26, 0xef, 0xbe, 0xb1, 0x76, 0xad, 0xbe,
  0x38, 0x40, 0xda, 0x3d, 0x9d, 0xf9, 0x03, 0xbf, 0x75, 0x9f, 0x84, 0x40,
  0xf8, 0x65, 0x4d, 0xbe, 0x43, 0x01, 0x05, 0xc0, 0x0f, 0x0a, 0x7f, 0x40,
  0xff, 0xbf, 0x9a, 0x40, 0xa4, 0xf1, 0xff, 0xff, 0x4a, 0xf7, 0xff, 0xff,
  0x04, 0x00, 0x00, 0x00, 0x00, 0x04, 0x00, 0x00, 0x72, 0xda, 0xbf, 0x3f,
  0xad, 0x8f, 0x5d, 0x3f, 0xeb, 0x61, 0x24, 0xbc, 0x8c, 0xfe, 0xc4, 0x3f,
  0xa1, 0xd7, 0x57, 0x3e, 0xc4, 0xd1, 0x36, 0x3f, 0x35, 0xd4, 0x2a, 0x3e,
  0x30, 0x5f, 0xc5, 0xbc, 0x74, 0xa2, 0x36, 0x3d, 0x66, 0x26, 0x08, 0x3f,
  0x4c, 0x99, 0x04, 0xbd, 0xca, 0x32, 0x0e, 0x3d, 0xe5, 0x69, 0x81, 0x3e,
  0x2c, 0x3a, 0x55, 0xbe, 0x56, 0xfc, 0x80, 0xbe, 0x23, 0x34, 0x97, 0xbf,
  0x0e, 0x43, 0x81, 0xbf, 0xf9, 0x47, 0x8f, 0xbd, 0x9e, 0x12, 0x57, 0x3f,
  0xc0, 0x71, 0x0e, 0x3f, 0xc3, 0x8b, 0xee, 0x3e, 0x09, 0x18, 0xc1, 0x3e,
  0x70, 0x56, 0x9e, 0xbe, 0x38, 0xb9, 0x0c, 0xbe, 0x6a, 0x77, 0xc6, 0xbe,
  0x38, 0x8a, 0x5a, 0x3f, 0x8b, 0xe6, 0x84, 0x3f, 0x7c, 0x41, 0xa1, 0x3f,
  0x35, 0xca, 0x9c, 0x3e, 0x28, 0xcc, 0x05, 0xbf, 0xb2, 0x04, 0x08, 0x3f,
  0x30, 0xb7, 0xf5, 0x3e, 0x51, 0x02, 0x06, 0xc0, 0x8c, 0xfb, 0xcd, 0x3f,
  0x0e, 0x15, 0x6e, 0xbe, 0x16, 0x67, 0xa9, 0xbe, 0x32, 0x3b, 0x41, 0x3f,
  0x6f, 0xc0, 0xfd, 0x3f, 0x75, 0x19, 0x9c, 0xbd, 0x4d, 0x91, 0x3d, 0xbe,
  0xc3, 0x6c, 0xe2, 0x3e, 0x58, 0x2d, 0x69, 0xbd, 0x57, 0x2d, 0xa2, 0x3f,
  0xc3, 0x71, 0x8d, 0xbf, 0x1e, 0xac, 0x8d, 0xbe, 0xa3, 0xac, 0x09, 0xc0,
  0xfa, 0x5d, 0x8c, 0x3f, 0x85, 0x68, 0x48, 0x3f, 0x58, 0x81, 0x47, 0xbe,
  0xa4, 0xa2, 0xcf, 0x3e, 0xa5, 0xb0, 0x73, 0x3e, 0x79, 0x42, 0x1d, 0xbe,
  0x47, 0xcc, 0x9b, 0x3f, 0xf3, 0x2c, 0xbe, 0xbc, 0x29, 0x4d, 0xba, 0x3c,
  0xfe, 0xd1, 0x63, 0xbe, 0x65, 0x60, 0x34, 0x3f, 0xd9, 0x89, 0x07, 0x3f,
  0x8d, 0x9c, 0xcb, 0x3f, 0xd5, 0xbc, 0xb3, 0xbf, 0x16, 0xda, 0x6c, 0x3e,
  0xd7, 0x91, 0xa9, 0xbe, 0xdf, 0x52, 0xcf, 0xbe, 0x6c, 0x77, 0x18, 0x3f,
  0x9e, 0x1c, 0x1f, 0x3e, 0x39, 0x18, 0x8c, 0xbe, 0xa6, 0x77, 0xc7, 0x3c,
  0x29, 0xc5, 0x84, 0xbe, 0x7c, 0xcc, 0x5c, 0xbe, 0x75, 0x56, 0x44, 0x3e,
  0x33, 0x07, 0x47, 0xbe, 0x27, 0x70, 0xd8, 0x3e, 0xc8, 0xd3, 0x6b, 0x3e,
  0xc2, 0x34, 0xa3, 0x3d, 0x6f, 0x49, 0xb4, 0xbe, 0x1d, 0x45, 0xf5, 0xbe,
  0x20, 0xcb, 0xcf, 0xbd, 0xfb, 0xd0, 0xbc, 0x3e, 0x65, 0x2a, 0xb5, 0xbd,
  0xdf, 0x62, 0x1e, 0x3d, 0xef, 0xc8, 0x3a, 0xbb, 0x29, 0xcc, 0x17, 0xc0,
  0x14, 0x8f, 0xcf, 0xc0, 0x5f, 0x21, 0x2b, 0x3e, 0x82, 0x1d, 0x4a, 0x3f,
  0x84, 0xfc, 0x84, 0xbd, 0x87, 0x2c, 0xb4, 0x3e, 0x47, 0x78, 0xc1, 0x3e,
  0xe1, 0x24, 0xa2, 0x3e, 0x24, 0x78, 0x39, 0x3f, 0x91, 0x6f, 0xee, 0x3e,
  0x9d, 0x09, 0x19, 0x3c, 0xa5, 0x44, 0xbf, 0x3e, 0x6b, 0x3f, 0xa0, 0xc0,
  0x73, 0x5b, 0x97, 0x3f, 0xc9, 0xc3, 0x5b, 0x3f, 0x8d, 0xd5, 0x55, 0xbf,
  0xf6, 0x4e, 0x5b, 0x3f, 0x94, 0x6c, 0xbb, 0xbe, 0x72, 0x95, 0xc3, 0x3e,
  0xb0, 0xa9, 0x21, 0xbf, 0x7a, 0xe2, 0x8e, 0x3f, 0x04, 0x46, 0x17, 0xbe,
  0x00, 0x88, 0xa2, 0xbc, 0xc2, 0x55, 0xb2, 0x3f, 0x90, 0xff, 0xbc, 0xbf,
  0x00, 0x00, 0xe0, 0x38, 0xd2, 0x0d, 0x02, 0x3f, 0x7d, 0x02, 0x6e, 0xbe,
  0x38, 0x74, 0xc8, 0xbf, 0x52, 0x0f, 0xa0, 0xbf, 0x35, 0x2f, 0x99, 0x3e,
  0x60, 0xaa, 0xed, 0x3d, 0xd2, 0x61, 0x55, 0x3e, 0xf1, 0x19, 0xc2, 0x3e,
  0xba, 0xfc, 0x1d, 0xbe, 0x17, 0x10, 0x97, 0x3e, 0x28, 0x65, 0xc6, 0xbe,
  0x3d, 0x4e, 0x4a, 0xbe, 0x30, 0x43, 0x2e, 0xbe, 0xd6, 0x00, 0x9e, 0xbd,
  0xee, 0x80, 0xc7, 0xbe, 0x30, 0xcb, 0xd6, 0x3d, 0x31, 0x0d, 0xd5, 0xbe,
  0xf6, 0xb9, 0xb7, 0xbe, 0x9c, 0x40, 0xb0, 0x3e, 0x54, 0x28, 0x72, 0xbe,
  0xd1, 0x96, 0x8d, 0xbe, 0xda, 0x3a, 0x73, 0x3f, 0x11, 0xaf, 0x62, 0xbe,
  0xbc, 0xe8, 0x28, 0xc0, 0x38, 0x7f, 0xb7, 0xbf, 0x43, 0xfc, 0x8b, 0x3f,
  0xbe, 0x4e, 0xdd, 0x3e, 0x40, 0xb1, 0x8a, 0x3e, 0x30, 0x70, 0xb5, 0xbc,
  0x58, 0x22, 0x14, 0x3f, 0xfb, 0x2e, 0x56, 0xbf, 0x25, 0x46, 0xf9, 0xbd,
  0xe0, 0x97, 0x95, 0x3f, 0x14, 0xa5, 0xe4, 0x3d, 0xe1, 0x06, 0x5a, 0x40,
  0xb0, 0xe4, 0x04, 0xbf, 0x28, 0xa0, 0x35, 0x3f, 0xd8, 0x93, 0xc3, 0x3f,
  0x78, 0xe7, 0x0e, 0xbf, 0xd3, 0xf1, 0xac, 0xbf, 0x3a, 0x76, 0x79, 0x3f,
  0xfa, 0xfa, 0xab, 0xbe, 0x4c, 0x91, 0xf8, 0xbf, 0x5d, 0x64, 0xf5, 0xbe,
  0x32, 0x57, 0x1d, 0xbe, 0x3c, 0x96, 0x60, 0x3f, 0xa9, 0xd9, 0x35, 0x3f,
  0x19, 0x63, 0x66, 0xbe, 0xbd, 0x58, 0x89, 0xbe, 0xb1, 0x70, 0x96, 0x3e,
  0xac, 0x72, 0x48, 0xbe, 0x25, 0x51, 0xa4, 0xbe, 0x58, 0x5c, 0x72, 0xbe,
  0x3d, 0x13, 0xab, 0xbe, 0x1c, 0x19, 0x29, 0xbe, 0x20, 0x19, 0x81, 0x3e,
  0x7b, 0xb0, 0xe7, 0xbe, 0xbd, 0x48, 0x1a, 0xbe, 0x58, 0x43, 0x82, 0x3e,
  0xa6, 0x54, 0xab, 0xbe, 0xa0, 0x0b, 0x86, 0xbc, 0xa5, 0x79, 0xea, 0xbe,
  0x18, 0x11, 0xe2, 0xbd, 0xe4, 0x7b, 0x00, 0xbf, 0xe8, 0x65, 0x85, 0x3d,
  0x8d, 0xf9, 0x7b, 0xbe, 0x1d, 0x0a, 0xa9, 0x3e, 0x28, 0x54, 0xda, 0x3c,
  0x5d, 0xb6, 0x80, 0x3e, 0xb4, 0x34, 0x83, 0x3f, 0x1f, 0xaa, 0x8b, 0x3d,
  0xe4, 0xa2, 0xf3, 0xbf, 0x86, 0x97, 0x9c, 0xbf, 0x06, 0x94, 0xd4, 0x3f,
  0xa4, 0xcc, 0x34, 0x3f, 0x8a, 0x15, 0x48, 0xbe, 0xc3, 0x7c, 0x99, 0xbe,
  0x03, 0xeb, 0x94, 0x3f, 0x98, 0x2c, 0x9a, 0xbe, 0x97, 0xd7, 0x54, 0xbf,
  0xe7, 0x81, 0xdd, 0x3f, 0x70, 0xe3, 0xba, 0xbe, 0x65, 0x5e, 0xf9, 0x3d,
  0x93, 0x9b, 0xd3, 0x3e, 0x14, 0xb0, 0xb7, 0x3e, 0x93, 0x1d, 0x71, 0xbf,
  0x52, 0x82, 0x69, 0x3f, 0x1e, 0x2e, 0xe4, 0xbe, 0x1d, 0x0b, 0xb5, 0x3f,
  0xe6, 0x60, 0xe5, 0xbe, 0xe2, 0x07, 0xd4, 0xbe, 0x46, 0x17, 0x4f, 0x3d,
  0x82, 0x78, 0x13, 0x3e, 0xc3, 0x8d, 0xf7, 0x3d, 0xd5, 0x48, 0x47, 0x3f,
  0xa4, 0x60, 0x6f, 0x3f, 0x1d, 0x0d, 0xfa, 0x3f, 0x9c, 0x9b, 0xcd, 0xbd,
  0x85, 0x44, 0x40, 0xbf, 0x56, 0x01, 0x23, 0xbf, 0xfc, 0x6c, 0xac, 0x3f,
  0xc0, 0x6d, 0x12, 0xbe, 0x4a, 0x6b, 0xa2, 0x3c, 0xb7, 0xcd, 0x11, 0x3f,
  0x02, 0x8e, 0x15, 0x3f, 0x44, 0xb1, 0x0e, 0xbe, 0x92, 0xcf, 0xa5, 0xbd,
  0x26, 0x36, 0xd3, 0xbd, 0x6e, 0xf8, 0x88, 0xbd, 0x0d, 0xc5, 0xb2, 0x3f,
  0x7b, 0x01, 0x71, 0xbf, 0x2f, 0xfb, 0x38, 0x3f, 0x3c, 0xf3, 0x3f, 0xbf,
  0x91, 0x18, 0xaa, 0x3e, 0x83, 0x84, 0xa1, 0xc0, 0x3f, 0x58, 0x41, 0xc0,
  0x25, 0xad, 0x9f, 0x3c, 0x01, 0xc5, 0x55, 0x3f, 0xdd, 0xca, 0x1a, 0xbf,
  0x36, 0x9c, 0x11, 0xbf, 0xfc, 0x2f, 0x30, 0xbf, 0x96, 0x87, 0x97, 0x3f,
  0x5e, 0x78, 0x93, 0x3f, 0x9b, 0x0b, 0xa3, 0xbe, 0xfd, 0xe1, 0x04, 0x3e,
  0x90, 0xf6, 0xac, 0x3e, 0xf9, 0x2c, 0x52, 0x3f, 0x68, 0xca, 0xfe, 0xbd,
  0x58, 0x17, 0x9e, 0x3f, 0xed, 0xd2, 0xa5, 0xbe, 0x15, 0x6c, 0x12, 0xc0,
  0x75, 0x62, 0xc0, 0x3e, 0x05, 0x2f, 0x44, 0x3e, 0x1b, 0x8c, 0x83, 0x3f,
  0xaa, 0xdc, 0x26, 0x3f, 0x0f, 0xd8, 0xdf, 0xbf, 0xac, 0xdc, 0x66, 0x3f,
  0x90, 0xed, 0x83, 0x3f, 0xdf, 0x20, 0x1b, 0xc1, 0x39, 0xaf, 0x94, 0xbd,
  0xa6, 0x9c, 0x2c, 0xbe, 0x27, 0xf1, 0xb3, 0x3e, 0x31, 0x9f, 0x92, 0x3f,
  0xa5, 0x0e, 0x32, 0x3e, 0xab, 0x51, 0x4c, 0xbf, 0x24, 0xcd, 0xc4, 0xbd,
  0x5e, 0x48, 0x8d, 0x3e, 0x21, 0x90, 0x34, 0x3e, 0x3d, 0x92, 0x68, 0xbd,
  0x56, 0xfb, 0xff, 0xff, 0x04, 0x00, 0x00, 0x00, 0x40, 0x00, 0x00, 0x00,
  0xb1, 0xcc, 0x6c, 0x3c, 0xf3, 0xa8, 0x22, 0xbe, 0x42, 0x6a, 0x88, 0x3e,
  0x54, 0x0e, 0x8d, 0x3c, 0x44, 0x01, 0x80, 0x3d, 0x63, 0x45, 0x28, 0x3f,
  0xec, 0x83, 0x79, 0xbd, 0xf4, 0x3a, 0x00, 0xbd, 0x82, 0x0f, 0xa3, 0xbe,
  0x23, 0x42, 0x4f, 0x3e, 0x49, 0x96, 0xad, 0xbe, 0xe1, 0x1e, 0x92, 0xbd,
  0x00, 0x00, 0x00, 0x00, 0x60, 0x04, 0x80, 0x3d, 0x55, 0x5e, 0x06, 0x3f,
  0xee, 0x6d, 0x6f, 0xbe, 0x00, 0xf6, 0xff, 0xff, 0xa6, 0xfb, 0xff, 0xff,
  0x04, 0x00, 0x00, 0x00, 0x00, 0x04, 0x00, 0x00, 0xdc, 0x43, 0xb5, 0xbe,
  0xb0, 0x57, 0xa5, 0x3e, 0xbc, 0x59, 0xb6, 0xbe, 0x7e, 0x19, 0xc6, 0x3e,
  0xe6, 0x26, 0xa9, 0x3f, 0xa4, 0x09, 0xf5, 0xbd, 0x6e, 0x24, 0x0b, 0xbe,
  0x75, 0xa9, 0x23, 0xbe, 0x04, 0x96, 0x02, 0xc0, 0xa6, 0x5f, 0x9f, 0x3f,
  0xfd, 0x4b, 0x58, 0xbf, 0x1c, 0x0d, 0x13, 0x3e, 0xac, 0xb5, 0x14, 0x3e,
  0x0f, 0x33, 0x98, 0x3e, 0xb0, 0x4d, 0x21, 0xbe, 0xfd, 0x9d, 0xa0, 0x3f,
  0x82, 0x8a, 0x65, 0x3e, 0x18, 0x36, 0x3b, 0xbe, 0x24, 0xf9, 0x86, 0xbe,
  0x2e, 0xc3, 0xb2, 0x3e, 0x5b, 0x65, 0xcc, 0x3e, 0x04, 0xab, 0xda, 0xbd,
  0x53, 0x55, 0x41, 0xbe, 0x65, 0x02, 0x9e, 0x3e, 0x35, 0x95, 0x6e, 0x3f,
  0xbf, 0x4b, 0x9b, 0x3e, 0xa3, 0x2e, 0x1b, 0xc0, 0xbe, 0xef, 0x1d, 0x3e,
  0x1d, 0xa3, 0xdc, 0x3d, 0xe0, 0xca, 0x35, 0xbe, 0xf7, 0x8a, 0x68, 0xbe,
  0xba, 0x85, 0xfd, 0x3f, 0x22, 0x74, 0x2c, 0xbe, 0x80, 0x84, 0x10, 0x3e,
  0x55, 0x9f, 0x70, 0xbe, 0x00, 0x2e, 0x8b, 0xbe, 0x19, 0xe9, 0xf2, 0xbf,
  0xa3, 0xf6, 0x9d, 0xbe, 0x90, 0x51, 0x4c, 0x3d, 0xb0, 0xc1, 0x34, 0xbe,
  0x30, 0x78, 0xd8, 0x3f, 0x49, 0xf8, 0x04, 0x3f, 0x1f, 0x63, 0xd2, 0xbf,
  0x02, 0xd5, 0x38, 0x3e, 0x01, 0x50, 0xd3, 0xbe, 0xb1, 0xca, 0xdc, 0x3e,
  0xee, 0x6c, 0x29, 0x3e, 0xc7, 0xf3, 0x2a, 0xbe, 0x80, 0x55, 0x8a, 0xbb,
  0xce, 0x25, 0xaf, 0xbe, 0xc5, 0x01, 0x4c, 0xbe, 0x56, 0xd2, 0x97, 0xbf,
  0xa8, 0xe0, 0x38, 0x3e, 0xd0, 0x8c, 0x73, 0x3d, 0x4e, 0xd5, 0xad, 0xbe,
  0x23, 0x93, 0x5a, 0x3e, 0xbf, 0xad, 0x7d, 0x3f, 0xed, 0x05, 0x33, 0x40,
  0x41, 0x61, 0xce, 0xbf, 0x51, 0x36, 0x5b, 0xbe, 0x6e, 0x8a, 0xaf, 0xbe,
  0x29, 0xf0, 0x1c, 0x3e, 0xfa, 0x32, 0x55, 0x3e, 0x44, 0x7c, 0x90, 0x3e,
  0x20, 0x0b, 0x16, 0xbe, 0x4c, 0x9d, 0xa2, 0xbd, 0xdc, 0x5b, 0x2e, 0xbe,
  0x6b, 0x3e, 0x8e, 0x3e, 0x20, 0xdf, 0x39, 0x3f, 0x3b, 0x1b, 0x53, 0xbe,
  0x2d, 0x36, 0x9c, 0xbe, 0xd8, 0x4d, 0xb8, 0x3e, 0x86, 0x6e, 0xf0, 0xbf,
  0x26, 0xdd, 0xa0, 0xbf, 0x21, 0x15, 0x95, 0x3f, 0xff, 0x00, 0xbf, 0xbe,
  0x15, 0xdd, 0xa8, 0x3d, 0x83, 0xfa, 0xa6, 0xbe, 0x7a, 0x76, 0x13, 0xbe,
  0xd3, 0x59, 0x87, 0x3e, 0xbd, 0xee, 0xda, 0x3e, 0x18, 0xa8, 0x15, 0x3d,
  0xaa, 0x70, 0x61, 0xbe, 0xf3, 0x09, 0x7d, 0x3f, 0x7e, 0xd8, 0x25, 0xc0,
  0x13, 0xc0, 0xc8, 0x3e, 0x7f, 0xa0, 0xa8, 0xbe, 0x3c, 0x01, 0x98, 0xbd,
  0xcf, 0x81, 0x10, 0xbe, 0x8d, 0x8e, 0x85, 0xbf, 0x50, 0xd5, 0xe6, 0xbf,
  0xfa, 0xa4, 0x68, 0x3e, 0x1a, 0xf1, 0x41, 0xbe, 0xb6, 0xb5, 0x28, 0x3e,
  0xce, 0x6d, 0x49, 0x3e, 0x58, 0x1f, 0x25, 0x3f, 0xf4, 0x2e, 0x64, 0xbe,
  0x64, 0x4d, 0x96, 0x3e, 0xdc, 0x72, 0x45, 0x3e, 0x1c, 0x68, 0x1c, 0xbf,
  0x6f, 0xe7, 0x78, 0x3e, 0x4f, 0xce, 0xc6, 0xbe, 0x5f, 0x27, 0xc5, 0xbe,
  0xe0, 0x1c, 0x62, 0xbe, 0x74, 0xa8, 0x8c, 0xbe, 0x85, 0xb3, 0x97, 0xbe,
  0xe9, 0xf8, 0x20, 0x3e, 0x3a, 0x4c, 0x7b, 0xbd, 0x60, 0x41, 0x00, 0xbe,
  0xa0, 0x70, 0xb2, 0xbd, 0x09, 0xcc, 0xda, 0x3e, 0x36, 0xd7, 0xde, 0xbd,
  0x14, 0x17, 0xc6, 0x3d, 0x6e, 0xd4, 0xa1, 0x3e, 0x92, 0x92, 0x1a, 0xbe,
  0x0c, 0xa2, 0xa9, 0xbe, 0x4a, 0x9f, 0xb7, 0xbd, 0x94, 0x13, 0x92, 0x3d,
  0x70, 0x0b, 0xdf, 0xbd, 0x34, 0x11, 0x87, 0xbe, 0xd6, 0x85, 0x35, 0xbe,
  0xa6, 0xe4, 0xc0, 0x3d, 0x74, 0xc8, 0x7f, 0xbe, 0xe2, 0x75, 0x97, 0x3e,
  0x38, 0x04, 0x56, 0xbd, 0x58, 0x80, 0x13, 0x3d, 0xb0, 0x25, 0x62, 0x3d,
  0x3e, 0x0b, 0x90, 0xbd, 0xad, 0x46, 0xb0, 0x3e, 0xdb, 0xa4, 0xb5, 0xbe,
  0xd2, 0x39, 0x49, 0x3d, 0xf0, 0xf7, 0x98, 0x3e, 0xaf, 0x3b, 0xf8, 0x3f,
  0x0c, 0x7e, 0x25, 0xbe, 0x36, 0xdc, 0x1b, 0xbe, 0x50, 0x04, 0x1a, 0x3e,
  0xc4, 0xb9, 0xcb, 0x3e, 0xbe, 0x21, 0xc2, 0xbf, 0x2d, 0xf4, 0x4e, 0x3f,
  0xa1, 0x9a, 0x3d, 0xbe, 0xcc, 0x61, 0x63, 0x3e, 0x72, 0x03, 0xba, 0x3e,
  0x88, 0x16, 0x38, 0xbe, 0x8c, 0xef, 0xb5, 0x3f, 0x16, 0x84, 0xb1, 0xbe,
  0x38, 0xcb, 0x98, 0x3e, 0xa5, 0x96, 0x4c, 0xbe, 0xdb, 0x41, 0xda, 0xbe,
  0xfe, 0x32, 0xa6, 0x3e, 0x81, 0x99, 0x71, 0x3d, 0xe0, 0x98, 0x73, 0xbe,
  0x30, 0xe0, 0xaa, 0xbb, 0x04, 0x8e, 0x63, 0xbf, 0x96, 0x0b, 0x11, 0x40,
  0x88, 0x81, 0xa5, 0x3f, 0x62, 0x18, 0xc1, 0xbe, 0x36, 0xc8, 0x7f, 0xbd,
  0x49, 0x97, 0x80, 0xbe, 0xf7, 0xbd, 0x9f, 0x3e, 0xaf, 0xd3, 0xfe, 0xbf,
  0xcc, 0xd6, 0x2d, 0xbe, 0x1c, 0x3c, 0xa3, 0x3e, 0x4c, 0x88, 0x29, 0xbe,
  0xf2, 0x34, 0x78, 0x3f, 0x2b, 0xd7, 0xa1, 0x3d, 0x66, 0x8f, 0x0d, 0xbe,
  0x78, 0x70, 0x60, 0xbd, 0x5e, 0x91, 0x36, 0x3e, 0xb8, 0x48, 0x11, 0x40,
  0x56, 0x5d, 0xe8, 0x3e, 0xf8, 0xa1, 0x44, 0x3f, 0xd7, 0x1d, 0x3b, 0x3e,
  0x00, 0xab, 0x8e, 0xbc, 0x55, 0xf6, 0x82, 0x3e, 0x43, 0x05, 0xd1, 0x3e,
  0x62, 0x31, 0x84, 0xbf, 0x84, 0x72, 0x22, 0xbe, 0xd8, 0x2b, 0xaf, 0xbe,
  0x41, 0x5f, 0x03, 0xbe, 0x02, 0xd1, 0xd1, 0x3f, 0x8f, 0xc6, 0x8e, 0xbf,
  0x84, 0x16, 0xd2, 0x3e, 0x58, 0x46, 0x3f, 0xbe, 0xd2, 0xda, 0x3a, 0x3d,
  0x66, 0x98, 0xc6, 0xbe, 0x5b, 0xdd, 0xee, 0x3f, 0xab, 0xb0, 0x5a, 0x3f,
  0x37, 0xfd, 0xc6, 0x3e, 0x6a, 0x3a, 0xa7, 0xbc, 0x88, 0xc5, 0xc1, 0x3e,
  0x84, 0x14, 0xc5, 0xbe, 0x6c, 0x4b, 0xe8, 0x3f, 0x62, 0xd6, 0x32, 0x3e,
  0xa0, 0xd4, 0x3f, 0xbd, 0x34, 0x05, 0xb3, 0xbd, 0x75, 0xdd, 0x9b, 0xbe,
  0x0c, 0xad, 0x8d, 0xbe, 0x15, 0x96, 0xd3, 0x3e, 0xd8, 0xc8, 0xb9, 0xbe,
  0xda, 0x27, 0x42, 0x3e, 0xcb, 0x46, 0x90, 0xbe, 0x36, 0x41, 0x24, 0xbe,
  0xd7, 0x5c, 0xb5, 0xbe, 0x10, 0x4e, 0x5c, 0x3d, 0xd6, 0xce, 0xbe, 0xbe,
  0x75, 0xd5, 0xcf, 0x3e, 0x5a, 0x78, 0x36, 0xbe, 0x24, 0xe6, 0xca, 0xbd,
  0xc2, 0x3b, 0x05, 0x3e, 0x0a, 0x3d, 0xf4, 0xbd, 0x97, 0x7a, 0x44, 0x3e,
  0x60, 0xcf, 0x5f, 0xbf, 0xf4, 0x2f, 0xf9, 0xbf, 0x92, 0x36, 0xc8, 0x3e,
  0x44, 0x0c, 0xae, 0x3e, 0x52, 0xe3, 0x9f, 0x3d, 0x68, 0x31, 0xb9, 0x3b,
  0x55, 0x3c, 0xd1, 0x3f, 0xf3, 0x89, 0x06, 0xbf, 0x6e, 0x8b, 0x8b, 0xbd,
  0x53, 0xdc, 0x97, 0xbd, 0x9e, 0xf2, 0xb8, 0x3d, 0xa6, 0x40, 0x68, 0xbe,
  0x5b, 0x26, 0xfb, 0xbe, 0x9a, 0xeb, 0x11, 0xbe, 0x66, 0x28, 0xa2, 0x3d,
  0x53, 0x7c, 0xa3, 0x3e, 0x95, 0xa6, 0x04, 0x3f, 0xdc, 0xfe, 0xe0, 0xbf,
  0x4e, 0x78, 0x67, 0xbe, 0x9b, 0x7b, 0xc7, 0xbe, 0x94, 0x5f, 0x37, 0x3d,
  0x91, 0x74, 0xaf, 0xbf, 0x92, 0xaf, 0x60, 0x3f, 0x01, 0xa7, 0x18, 0x3f,
  0xe9, 0x09, 0xb3, 0x3e, 0x7c, 0xad, 0x5b, 0xbe, 0x24, 0xd7, 0x33, 0xbe,
  0xea, 0x14, 0x31, 0x3e, 0x12, 0x73, 0xc9, 0xbf, 0xbc, 0x87, 0xbe, 0x3d,
  0xc3, 0x4d, 0x30, 0x3d, 0xaf, 0x3f, 0x9f, 0xbe, 0x65, 0xe5, 0x14, 0x3f,
  0xbc, 0x56, 0x44, 0xbf, 0x70, 0xe5, 0xef, 0xbd, 0xd6, 0xe7, 0xd7, 0x3c,
  0x60, 0xdf, 0x8c, 0xbe, 0xe8, 0x39, 0xcf, 0x3f, 0x37, 0x6b, 0xcc, 0x3e,
  0xb1, 0xde, 0xb6, 0x3f, 0x64, 0x39, 0x33, 0xbd, 0xdd, 0xe8, 0x05, 0x3e,
  0x2e, 0xa4, 0x01, 0x3e, 0x84, 0xfb, 0xd5, 0x3d, 0x1b, 0xe4, 0x3c, 0xbf,
  0xb2, 0xff, 0xff, 0xff, 0x04, 0x00, 0x00, 0x00, 0x40, 0x00, 0x00, 0x00,
  0xf5, 0x39, 0xb0, 0x3e, 0x1a, 0xfb, 0x3a, 0xbd, 0x86, 0x1b, 0xc5, 0xbd,
  0x2e, 0xca, 0x7f, 0x3f, 0x88, 0x5b, 0xd2, 0xbd, 0x7e, 0x51, 0x00, 0xbe,
  0x8d, 0xc5, 0x87, 0x3f, 0xb4, 0xc8, 0xa8, 0xbd, 0xb4, 0xa3, 0x9f, 0xbe,
  0x0f, 0xbf, 0x08, 0x3f, 0x62, 0x67, 0x3e, 0xbe, 0x80, 0x34, 0xb2, 0xbe,
  0xfa, 0x03, 0x10, 0xbf, 0x83, 0x24, 0x7c, 0x3f, 0xf8, 0xe3, 0x5a, 0xbb,
  0x44, 0x21, 0xc4, 0x3e, 0x00, 0x00, 0x06, 0x00, 0x08, 0x00, 0x04, 0x00,
  0x06, 0x00, 0x00, 0x00, 0x04, 0x00, 0x00, 0x00, 0x18, 0x00, 0x00, 0x00,
  0x51, 0xf6, 0xda, 0x3f, 0x10, 0x20, 0x98, 0x3e, 0x59, 0xf5, 0x6e, 0x3f,
  0x82, 0xc4, 0x30, 0xbf, 0xf4, 0x05, 0xa5, 0x3f, 0x83, 0x50, 0x25, 0x3e,
  0x88, 0xfa, 0xff, 0xff, 0x0f, 0x00, 0x00, 0x00, 0x54, 0x4f, 0x43, 0x4f,
  0x20, 0x43, 0x6f, 0x6e, 0x76, 0x65, 0x72, 0x74, 0x65, 0x64, 0x2e, 0x00,
  0x01, 0x00, 0x00, 0x00, 0x10, 0x00, 0x00, 0x00, 0x0c, 0x00, 0x14, 0x00,
  0x04, 0x00, 0x08, 0x00, 0x0c, 0x00, 0x10, 0x00, 0x0c, 0x00, 0x00, 0x00,
  0x28, 0x01, 0x00, 0x00, 0x1c, 0x01, 0x00, 0x00, 0x10, 0x01, 0x00, 0x00,
  0x04, 0x00, 0x00, 0x00, 0x04, 0x00, 0x00, 0x00, 0xc8, 0x00, 0x00, 0x00,
  0x80, 0x00, 0x00, 0x00, 0x38, 0x00, 0x00, 0x00, 0x04, 0x00, 0x00, 0x00,
  0x9a, 0xff, 0xff, 0xff, 0x00, 0x00, 0x00, 0x08, 0x18, 0x00, 0x00, 0x00,
  0x0c, 0x00, 0x00, 0x00, 0x04, 0x00, 0x00, 0x00, 0xf0, 0xfa, 0xff, 0xff,
  0x01, 0x00, 0x00, 0x00, 0x00, 0x00, 0x00, 0x00, 0x03, 0x00, 0x00, 0x00,
  0x0a, 0x00, 0x00, 0x00, 0x0b, 0x00, 0x00, 0x00, 0x0c, 0x00, 0x00, 0x00,
  0xca, 0xff, 0xff, 0xff, 0x00, 0x00, 0x00, 0x08, 0x1c, 0x00, 0x00, 0x00,
  0x10, 0x00, 0x00, 0x00, 0x04, 0x00, 0x00, 0x00, 0x76, 0xff, 0xff, 0xff,
  0x00, 0x00, 0x00, 0x01, 0x01, 0x00, 0x00, 0x00, 0x0a, 0x00, 0x00, 0x00,
  0x03, 0x00, 0x00, 0x00, 0x07, 0x00, 0x00, 0x00, 0x08, 0x00, 0x00, 0x00,
  0x09, 0x00, 0x00, 0x00, 0x00, 0x00, 0x0e, 0x00, 0x14, 0x00, 0x00, 0x00,
  0x08, 0x00, 0x0c, 0x00, 0x07, 0x00, 0x10, 0x00, 0x0e, 0x00, 0x00, 0x00,
  0x00, 0x00, 0x00, 0x08, 0x1c, 0x00, 0x00, 0x00, 0x10, 0x00, 0x00, 0x00,
  0x04, 0x00, 0x00, 0x00, 0xba, 0xff, 0xff, 0xff, 0x00, 0x00, 0x00, 0x01,
  0x01, 0x00, 0x00, 0x00, 0x07, 0x00, 0x00, 0x00, 0x03, 0x00, 0x00, 0x00,
  0x04, 0x00, 0x00, 0x00, 0x05, 0x00, 0x00, 0x00, 0x06, 0x00, 0x00, 0x00,
  0x00, 0x00, 0x0e, 0x00, 0x16, 0x00, 0x00, 0x00, 0x08, 0x00, 0x0c, 0x00,
  0x07, 0x00, 0x10, 0x00, 0x0e, 0x00, 0x00, 0x00, 0x00, 0x00, 0x00, 0x08,
  0x24, 0x00, 0x00, 0x00, 0x18, 0x00, 0x00, 0x00, 0x0c, 0x00, 0x00, 0x00,
  0x00, 0x00, 0x06, 0x00, 0x08, 0x00, 0x07, 0x00, 0x06, 0x00, 0x00, 0x00,
  0x00, 0x00, 0x00, 0x01, 0x01, 0x00, 0x00, 0x00, 0x04, 0x00, 0x00, 0x00,
  0x03, 0x00, 0x00, 0x00, 0x01, 0x00, 0x00, 0x00, 0x02, 0x00, 0x00, 0x00,
  0x03, 0x00, 0x00, 0x00, 0x01, 0x00, 0x00, 0x00, 0x00, 0x00, 0x00, 0x00,
  0x01, 0x00, 0x00, 0x00, 0x01, 0x00, 0x00, 0x00, 0x0d, 0x00, 0x00, 0x00,
  0x08, 0x04, 0x00, 0x00, 0x9c, 0x03, 0x00, 0x00, 0x38, 0x03, 0x00, 0x00,
  0xec, 0x02, 0x00, 0x00, 0xa4, 0x02, 0x00, 0x00, 0x40, 0x02, 0x00, 0x00,
  0xf4, 0x01, 0x00, 0x00, 0xac, 0x01, 0x00, 0x00, 0x48, 0x01, 0x00, 0x00,
  0xfc, 0x00, 0x00, 0x00, 0xb4, 0x00, 0x00, 0x00, 0x50, 0x00, 0x00, 0x00,
  0x04, 0x00, 0x00, 0x00, 0x3a, 0xfc, 0xff, 0xff, 0x3c, 0x00, 0x00, 0x00,
  0x01, 0x00, 0x00, 0x00, 0x0c, 0x00, 0x00, 0x00, 0x04, 0x00, 0x00, 0x00,
  0x2c, 0xfc, 0xff, 0xff, 0x20, 0x00, 0x00, 0x00, 0x73, 0x65, 0x71, 0x75,
  0x65, 0x6e, 0x74, 0x69, 0x61, 0x6c, 0x5f, 0x31, 0x2f, 0x64, 0x65, 0x6e,
  0x73, 0x65, 0x5f, 0x37, 0x2f, 0x4d, 0x61, 0x74, 0x4d, 0x75, 0x6c, 0x5f,
  0x62, 0x69, 0x61, 0x73, 0x00, 0x00, 0x00, 0x00, 0x01, 0x00, 0x00, 0x00,
  0x06, 0x00, 0x00, 0x00, 0x82, 0xfc, 0xff, 0xff, 0x50, 0x00, 0x00, 0x00,
  0x0c, 0x00, 0x00, 0x00, 0x0c, 0x00, 0x00, 0x00, 0x04, 0x00, 0x00, 0x00,
  0x74, 0xfc, 0xff, 0xff, 0x34, 0x00, 0x00, 0x00, 0x73, 0x65, 0x71, 0x75,
  0x65, 0x6e, 0x74, 0x69, 0x61, 0x6c, 0x5f, 0x31, 0x2f, 0x64, 0x65, 0x6e,
  0x73, 0x65, 0x5f, 0x37, 0x2f, 0x4d, 0x61, 0x74, 0x4d, 0x75, 0x6c, 0x2f,
  0x52, 0x65, 0x61, 0x64, 0x56, 0x61, 0x72, 0x69, 0x61, 0x62, 0x6c, 0x65,
  0x4f, 0x70, 0x2f, 0x74, 0x72, 0x61, 0x6e, 0x73, 0x70, 0x6f, 0x73, 0x65,
  0x00, 0x00, 0x00, 0x00, 0x02, 0x00, 0x00, 0x00, 0x06, 0x00, 0x00, 0x00,
  0x10, 0x00, 0x00, 0x00, 0xe2, 0xfc, 0xff, 0xff, 0x34, 0x00, 0x00, 0x00,
  0x09, 0x00, 0x00, 0x00, 0x0c, 0x00, 0x00, 0x00, 0x04, 0x00, 0x00, 0x00,
  0xd4, 0xfc, 0xff, 0xff, 0x19, 0x00, 0x00, 0x00, 0x73, 0x65, 0x71, 0x75,
  0x65, 0x6e, 0x74, 0x69, 0x61, 0x6c, 0x5f, 0x31, 0x2f, 0x64, 0x65, 0x6e,
  0x73, 0x65, 0x5f, 0x36, 0x2f, 0x52, 0x65, 0x6c, 0x75, 0x00, 0x00, 0x00,
  0x02, 0x00, 0x00, 0x00, 0x01, 0x00, 0x00, 0x00, 0x10, 0x00, 0x00, 0x00,
  0x26, 0xfd, 0xff, 0xff, 0x3c, 0x00, 0x00, 0x00, 0x02, 0x00, 0x00, 0x00,
  0x0c, 0x00, 0x00, 0x00, 0x04, 0x00, 0x00, 0x00, 0x18, 0xfd, 0xff, 0xff,
  0x20, 0x00, 0x00, 0x00, 0x73, 0x65, 0x71, 0x75, 0x65, 0x6e, 0x74, 0x69,
  0x61, 0x6c, 0x5f, 0x31, 0x2f, 0x64, 0x65, 0x6e, 0x73, 0x65, 0x5f, 0x36,
  0x2f, 0x4d, 0x61, 0x74, 0x4d, 0x75, 0x6c, 0x5f, 0x62, 0x69, 0x61, 0x73,
  0x00, 0x00, 0x00, 0x00, 0x01, 0x00, 0x00, 0x00, 0x10, 0x00, 0x00, 0x00,
  0x6e, 0xfd, 0xff, 0xff, 0x50, 0x00, 0x00, 0x00, 0x06, 0x00, 0x00, 0x00,
  0x0c, 0x00, 0x00, 0x00, 0x04, 0x00, 0x00, 0x00, 0x60, 0xfd, 0xff, 0xff,
  0x34, 0x00, 0x00, 0x00, 0x73, 0x65, 0x71, 0x75, 0x65, 0x6e, 0x74, 0x69,
  0x61, 0x6c, 0x5f, 0x31, 0x2f, 0x64, 0x65, 0x6e, 0x73, 0x65, 0x5f, 0x36,
  0x2f, 0x4d, 0x61, 0x74, 0x4d, 0x75, 0x6c, 0x2f, 0x52, 0x65, 0x61, 0x64,
  0x56, 0x61, 0x72, 0x69, 0x61, 0x62, 0x6c, 0x65, 0x4f, 0x70, 0x2f, 0x74,
  0x72, 0x61, 0x6e, 0x73, 0x70, 0x6f, 0x73, 0x65, 0x00, 0x00, 0x00, 0x00,
  0x02, 0x00, 0x00, 0x00, 0x10, 0x00, 0x00, 0x00, 0x10, 0x00, 0x00, 0x00,
  0xce, 0xfd, 0xff, 0xff, 0x34, 0x00, 0x00, 0x00, 0x0b, 0x00, 0x00, 0x00,
  0x0c, 0x00, 0x00, 0x00, 0x04, 0x00, 0x00, 0x00, 0xc0, 0xfd, 0xff, 0xff,
  0x19, 0x00, 0x00, 0x00, 0x73, 0x65, 0x71, 0x75, 0x65, 0x6e, 0x74, 0x69,
  0x61, 0x6c, 0x5f, 0x31, 0x2f, 0x64, 0x65, 0x6e, 0x73, 0x65, 0x5f, 0x35,
  0x2f, 0x52, 0x65, 0x6c, 0x75, 0x00, 0x00, 0x00, 0x02, 0x00, 0x00, 0x00,
  0x01, 0x00, 0x00, 0x00, 0x10, 0x00, 0x00, 0x00, 0x12, 0xfe, 0xff, 0xff,
  0x3c, 0x00, 0x00, 0x00, 0x05, 0x00, 0x00, 0x00, 0x0c, 0x00, 0x00, 0x00,
  0x04, 0x00, 0x00, 0x00, 0x04, 0xfe, 0xff, 0xff, 0x20, 0x00, 0x00, 0x00,
  0x73, 0x65, 0x71, 0x75, 0x65, 0x6e, 0x74, 0x69, 0x61, 0x6c, 0x5f, 0x31,
  0x2f, 0x64, 0x65, 0x6e, 0x73, 0x65, 0x5f, 0x35, 0x2f, 0x4d, 0x61, 0x74,
  0x4d, 0x75, 0x6c, 0x5f, 0x62, 0x69, 0x61, 0x73, 0x00, 0x00, 0x00, 0x00,
  0x01, 0x00, 0x00, 0x00, 0x10, 0x00, 0x00, 0x00, 0x5a, 0xfe, 0xff, 0xff,
  0x50, 0x00, 0x00, 0x00, 0x03, 0x00, 0x00, 0x00, 0x0c, 0x00, 0x00, 0x00,
  0x04, 0x00, 0x00, 0x00, 0x4c, 0xfe, 0xff, 0xff, 0x34, 0x00, 0x00, 0x00,
  0x73, 0x65, 0x71, 0x75, 0x65, 0x6e, 0x74, 0x69, 0x61, 0x6c, 0x5f, 0x31,
  0x2f, 0x64, 0x65, 0x6e, 0x73, 0x65, 0x5f, 0x35, 0x2f, 0x4d, 0x61, 0x74,
  0x4d, 0x75, 0x6c, 0x2f, 0x52, 0x65, 0x61, 0x64, 0x56, 0x61, 0x72, 0x69,
  0x61, 0x62, 0x6c, 0x65, 0x4f, 0x70, 0x2f, 0x74, 0x72, 0x61, 0x6e, 0x73,
  0x70, 0x6f, 0x73, 0x65, 0x00, 0x00, 0x00, 0x00, 0x02, 0x00, 0x00, 0x00,
  0x10, 0x00, 0x00, 0x00, 0x10, 0x00, 0x00, 0x00, 0xba, 0xfe, 0xff, 0xff,
  0x34, 0x00, 0x00, 0x00, 0x07, 0x00, 0x00, 0x00, 0x0c, 0x00, 0x00, 0x00,
  0x04, 0x00, 0x00, 0x00, 0xac, 0xfe, 0xff, 0xff, 0x19, 0x00, 0x00, 0x00,
  0x73, 0x65, 0x71, 0x75, 0x65, 0x6e, 0x74, 0x69, 0x61, 0x6c, 0x5f, 0x31,
  0x2f, 0x64, 0x65, 0x6e, 0x73, 0x65, 0x5f, 0x34, 0x2f, 0x52, 0x65, 0x6c,
  0x75, 0x00, 0x00, 0x00, 0x02, 0x00, 0x00, 0x00, 0x01, 0x00, 0x00, 0x00,
  0x10, 0x00, 0x00, 0x00, 0xfe, 0xfe, 0xff, 0xff, 0x3c, 0x00, 0x00, 0x00,
  0x0a, 0x00, 0x00, 0x00, 0x0c, 0x00, 0x00, 0x00, 0x04, 0x00, 0x00, 0x00,
  0xf0, 0xfe, 0xff, 0xff, 0x20, 0x00, 0x00, 0x00, 0x73, 0x65, 0x71, 0x75,
  0x65, 0x6e, 0x74, 0x69, 0x61, 0x6c, 0x5f, 0x31, 0x2f, 0x64, 0x65, 0x6e,
  0x73, 0x65, 0x5f, 0x34, 0x2f, 0x4d, 0x61, 0x74, 0x4d, 0x75, 0x6c, 0x5f,
  0x62, 0x69, 0x61, 0x73, 0x00, 0x00, 0x00, 0x00, 0x01, 0x00, 0x00, 0x00,
  0x10, 0x00, 0x00, 0x00, 0x46, 0xff, 0xff, 0xff, 0x50, 0x00, 0x00, 0x00,
  0x08, 0x00, 0x00, 0x00, 0x0c, 0x00, 0x00, 0x00, 0x04, 0x00, 0x00, 0x00,
  0x38, 0xff, 0xff, 0xff, 0x34, 0x00, 0x00, 0x00, 0x73, 0x65, 0x71, 0x75,
  0x65, 0x6e, 0x74, 0x69, 0x61, 0x6c, 0x5f, 0x31, 0x2f, 0x64, 0x65, 0x6e,
  0x73, 0x65, 0x5f, 0x34, 0x2f, 0x4d, 0x61, 0x74, 0x4d, 0x75, 0x6c, 0x2f,
  0x52, 0x65, 0x61, 0x64, 0x56, 0x61, 0x72, 0x69, 0x61, 0x62, 0x6c, 0x65,
  0x4f, 0x70, 0x2f, 0x74, 0x72, 0x61, 0x6e, 0x73, 0x70, 0x6f, 0x73, 0x65,
  0x00, 0x00, 0x00, 0x00, 0x02, 0x00, 0x00, 0x00, 0x10, 0x00, 0x00, 0x00,
  0x05, 0x00, 0x00, 0x00, 0xa6, 0xff, 0xff, 0xff, 0x48, 0x00, 0x00, 0x00,
  0x0d, 0x00, 0x00, 0x00, 0x2c, 0x00, 0x00, 0x00, 0x0c, 0x00, 0x00, 0x00,
  0x08, 0x00, 0x0c, 0x00, 0x04, 0x00, 0x08, 0x00, 0x08, 0x00, 0x00, 0x00,
  0x10, 0x00, 0x00, 0x00, 0x04, 0x00, 0x00, 0x00, 0x01, 0x00, 0x00, 0x00,
  0x00, 0x00, 0x7f, 0x43, 0x01, 0x00, 0x00, 0x00, 0x00, 0x00, 0x00, 0x00,
  0x0d, 0x00, 0x00, 0x00, 0x64, 0x65, 0x6e, 0x73, 0x65, 0x5f, 0x34, 0x5f,
  0x69, 0x6e, 0x70, 0x75, 0x74, 0x00, 0x00, 0x00, 0x02, 0x00, 0x00, 0x00,
  0x01, 0x00, 0x00, 0x00, 0x05, 0x00, 0x00, 0x00, 0x00, 0x00, 0x0e, 0x00,
  0x14, 0x00, 0x04, 0x00, 0x00, 0x00, 0x08, 0x00, 0x0c, 0x00, 0x10, 0x00,
  0x0e, 0x00, 0x00, 0x00, 0x28, 0x00, 0x00, 0x00, 0x04, 0x00, 0x00, 0x00,
  0x10, 0x00, 0x00, 0x00, 0x08, 0x00, 0x00, 0x00, 0x04, 0x00, 0x04, 0x00,
  0x04, 0x00, 0x00, 0x00, 0x08, 0x00, 0x00, 0x00, 0x49, 0x64, 0x65, 0x6e,
  0x74, 0x69, 0x74, 0x79, 0x00, 0x00, 0x00, 0x00, 0x02, 0x00, 0x00, 0x00,
  0x01, 0x00, 0x00, 0x00, 0x06, 0x00, 0x00, 0x00, 0x01, 0x00, 0x00, 0x00,
  0x10, 0x00, 0x00, 0x00, 0x00, 0x00, 0x0a, 0x00, 0x0c, 0x00, 0x07, 0x00,
  0x00, 0x00, 0x08, 0x00, 0x0a, 0x00, 0x00, 0x00, 0x00, 0x00, 0x00, 0x09,
  0x03, 0x00, 0x00, 0x00
};
const int mi_data_len =   4744;
